/* Generated by Edge Impulse
 *
 * Permission is hereby granted, free of charge, to any person obtaining a copy
 * of this software and associated documentation files (the "Software"), to deal
 * in the Software without restriction, including without limitation the rights
 * to use, copy, modify, merge, publish, distribute, sublicense, and/or sell
 * copies of the Software, and to permit persons to whom the Software is
 * furnished to do so, subject to the following conditions:
 *
 * The above copyright notice and this permission notice shall be included in
 * all copies or substantial portions of the Software.
 *
 * THE SOFTWARE IS PROVIDED "AS IS", WITHOUT WARRANTY OF ANY KIND, EXPRESS OR
 * IMPLIED, INCLUDING BUT NOT LIMITED TO THE WARRANTIES OF MERCHANTABILITY,
 * FITNESS FOR A PARTICULAR PURPOSE AND NONINFRINGEMENT. IN NO EVENT SHALL THE
 * AUTHORS OR COPYRIGHT HOLDERS BE LIABLE FOR ANY CLAIM, DAMAGES OR OTHER
 * LIABILITY, WHETHER IN AN ACTION OF CONTRACT, TORT OR OTHERWISE, ARISING FROM,
 * OUT OF OR IN CONNECTION WITH THE SOFTWARE OR THE USE OR OTHER DEALINGS IN THE
 * SOFTWARE.
 */

#ifndef _EI_CLASSIFIER_TFLITE_LEARN_5_H_
#define _EI_CLASSIFIER_TFLITE_LEARN_5_H_

#define EI_CLASSIFIER_TFLITE_LEARN_5_ARENA_SIZE     6265
const size_t tflite_learn_5_arena_size = 6265;

#ifdef EI_CLASSIFIER_TFLITE_ARENA_SIZE
#if EI_CLASSIFIER_TFLITE_ARENA_SIZE < EI_CLASSIFIER_TFLITE_LEARN_5_ARENA_SIZE
#undef EI_CLASSIFIER_TFLITE_ARENA_SIZE
#define EI_CLASSIFIER_TFLITE_ARENA_SIZE EI_CLASSIFIER_TFLITE_LEARN_5_ARENA_SIZE
#endif // #if EI_CLASSIFIER_TFLITE_ARENA_SIZE < EI_CLASSIFIER_TFLITE_LEARN_5_ARENA_SIZE
#else
#define EI_CLASSIFIER_TFLITE_ARENA_SIZE EI_CLASSIFIER_TFLITE_LEARN_5_ARENA_SIZE
#endif // #ifdef EI_CLASSIFIER_TFLITE_ARENA_SIZE

#if defined __GNUC__
#define ALIGN(X) __attribute__((aligned(X)))
#elif defined _MSC_VER
#define ALIGN(X) __declspec(align(X))
#elif defined __TASKING__
#define ALIGN(X) __align(X)
#else
#define ALIGN(X)
#endif
ALIGN(16) const unsigned char tflite_learn_5[] = {
  0x1c, 0x00, 0x00, 0x00, 0x54, 0x46, 0x4c, 0x33, 0x14, 0x00, 0x20, 0x00,
  0x1c, 0x00, 0x18, 0x00, 0x14, 0x00, 0x10, 0x00, 0x0c, 0x00, 0x00, 0x00,
  0x08, 0x00, 0x04, 0x00, 0x14, 0x00, 0x00, 0x00, 0x1c, 0x00, 0x00, 0x00,
  0x8c, 0x00, 0x00, 0x00, 0xe4, 0x00, 0x00, 0x00, 0x34, 0x09, 0x00, 0x00,
  0x44, 0x09, 0x00, 0x00, 0x50, 0x19, 0x00, 0x00, 0x03, 0x00, 0x00, 0x00,
  0x01, 0x00, 0x00, 0x00, 0x10, 0x00, 0x00, 0x00, 0x00, 0x00, 0x0a, 0x00,
  0x10, 0x00, 0x0c, 0x00, 0x08, 0x00, 0x04, 0x00, 0x0a, 0x00, 0x00, 0x00,
  0x0c, 0x00, 0x00, 0x00, 0x1c, 0x00, 0x00, 0x00, 0x3c, 0x00, 0x00, 0x00,
  0x0f, 0x00, 0x00, 0x00, 0x73, 0x65, 0x72, 0x76, 0x69, 0x6e, 0x67, 0x5f,
  0x64, 0x65, 0x66, 0x61, 0x75, 0x6c, 0x74, 0x00, 0x01, 0x00, 0x00, 0x00,
  0x04, 0x00, 0x00, 0x00, 0x9c, 0xff, 0xff, 0xff, 0x16, 0x00, 0x00, 0x00,
  0x04, 0x00, 0x00, 0x00, 0x08, 0x00, 0x00, 0x00, 0x6f, 0x75, 0x74, 0x70,
  0x75, 0x74, 0x5f, 0x30, 0x00, 0x00, 0x00, 0x00, 0x01, 0x00, 0x00, 0x00,
  0x04, 0x00, 0x00, 0x00, 0xa6, 0xf6, 0xff, 0xff, 0x04, 0x00, 0x00, 0x00,
  0x01, 0x00, 0x00, 0x00, 0x78, 0x00, 0x00, 0x00, 0x02, 0x00, 0x00, 0x00,
  0x34, 0x00, 0x00, 0x00, 0x04, 0x00, 0x00, 0x00, 0xdc, 0xff, 0xff, 0xff,
  0x19, 0x00, 0x00, 0x00, 0x04, 0x00, 0x00, 0x00, 0x13, 0x00, 0x00, 0x00,
  0x43, 0x4f, 0x4e, 0x56, 0x45, 0x52, 0x53, 0x49, 0x4f, 0x4e, 0x5f, 0x4d,
  0x45, 0x54, 0x41, 0x44, 0x41, 0x54, 0x41, 0x00, 0x08, 0x00, 0x0c, 0x00,
  0x08, 0x00, 0x04, 0x00, 0x08, 0x00, 0x00, 0x00, 0x18, 0x00, 0x00, 0x00,
  0x04, 0x00, 0x00, 0x00, 0x13, 0x00, 0x00, 0x00, 0x6d, 0x69, 0x6e, 0x5f,
  0x72, 0x75, 0x6e, 0x74, 0x69, 0x6d, 0x65, 0x5f, 0x76, 0x65, 0x72, 0x73,
  0x69, 0x6f, 0x6e, 0x00, 0x1a, 0x00, 0x00, 0x00, 0x4c, 0x08, 0x00, 0x00,
  0x44, 0x08, 0x00, 0x00, 0x24, 0x08, 0x00, 0x00, 0x04, 0x08, 0x00, 0x00,
  0xe4, 0x07, 0x00, 0x00, 0xc4, 0x07, 0x00, 0x00, 0xac, 0x07, 0x00, 0x00,
  0x8c, 0x07, 0x00, 0x00, 0x3c, 0x04, 0x00, 0x00, 0xec, 0x03, 0x00, 0x00,
  0x5c, 0x02, 0x00, 0x00, 0x2c, 0x02, 0x00, 0x00, 0xe4, 0x00, 0x00, 0x00,
  0xdc, 0x00, 0x00, 0x00, 0xd4, 0x00, 0x00, 0x00, 0xcc, 0x00, 0x00, 0x00,
  0xc4, 0x00, 0x00, 0x00, 0xbc, 0x00, 0x00, 0x00, 0xb4, 0x00, 0x00, 0x00,
  0xac, 0x00, 0x00, 0x00, 0xa4, 0x00, 0x00, 0x00, 0x9c, 0x00, 0x00, 0x00,
  0x94, 0x00, 0x00, 0x00, 0x8c, 0x00, 0x00, 0x00, 0x6c, 0x00, 0x00, 0x00,
  0x04, 0x00, 0x00, 0x00, 0x7e, 0xf7, 0xff, 0xff, 0x04, 0x00, 0x00, 0x00,
  0x58, 0x00, 0x00, 0x00, 0x0c, 0x00, 0x00, 0x00, 0x08, 0x00, 0x0e, 0x00,
  0x08, 0x00, 0x04, 0x00, 0x08, 0x00, 0x00, 0x00, 0x10, 0x00, 0x00, 0x00,
  0x28, 0x00, 0x00, 0x00, 0x00, 0x00, 0x06, 0x00, 0x08, 0x00, 0x04, 0x00,
  0x06, 0x00, 0x00, 0x00, 0x04, 0x00, 0x00, 0x00, 0x01, 0x00, 0x00, 0x00,
  0xeb, 0x03, 0x00, 0x00, 0x00, 0x00, 0x0a, 0x00, 0x10, 0x00, 0x0c, 0x00,
  0x08, 0x00, 0x04, 0x00, 0x0a, 0x00, 0x00, 0x00, 0x03, 0x00, 0x00, 0x00,
  0x02, 0x00, 0x00, 0x00, 0x04, 0x00, 0x00, 0x00, 0x06, 0x00, 0x00, 0x00,
  0x32, 0x2e, 0x31, 0x31, 0x2e, 0x31, 0x00, 0x00, 0xe2, 0xf7, 0xff, 0xff,
  0x04, 0x00, 0x00, 0x00, 0x10, 0x00, 0x00, 0x00, 0x31, 0x2e, 0x31, 0x34,
  0x2e, 0x30, 0x00, 0x00, 0x00, 0x00, 0x00, 0x00, 0x00, 0x00, 0x00, 0x00,
  0x30, 0xe9, 0xff, 0xff, 0x34, 0xe9, 0xff, 0xff, 0x38, 0xe9, 0xff, 0xff,
  0x3c, 0xe9, 0xff, 0xff, 0x40, 0xe9, 0xff, 0xff, 0x44, 0xe9, 0xff, 0xff,
  0x48, 0xe9, 0xff, 0xff, 0x4c, 0xe9, 0xff, 0xff, 0x50, 0xe9, 0xff, 0xff,
  0x54, 0xe9, 0xff, 0xff, 0x58, 0xe9, 0xff, 0xff, 0x2a, 0xf8, 0xff, 0xff,
  0x04, 0x00, 0x00, 0x00, 0x38, 0x01, 0x00, 0x00, 0x77, 0x37, 0x18, 0xbd,
  0xbe, 0x41, 0x38, 0x06, 0xd0, 0xc7, 0x1d, 0x0b, 0xef, 0xc5, 0x0f, 0x0e,
  0x0d, 0xfc, 0xd2, 0x0c, 0xf5, 0xc0, 0x26, 0x19, 0x03, 0xff, 0x5d, 0x48,
  0xc7, 0x8f, 0x23, 0x7a, 0x11, 0x81, 0x23, 0x36, 0x17, 0x03, 0xd6, 0x81,
  0x12, 0xf6, 0x18, 0x03, 0x07, 0x0f, 0xfc, 0xe9, 0xf7, 0x15, 0x0e, 0xfb,
  0xae, 0xe6, 0xed, 0xe4, 0xfa, 0xf9, 0x07, 0x00, 0x25, 0x11, 0xfd, 0x11,
  0xfd, 0xfa, 0x03, 0x0f, 0x31, 0x06, 0x05, 0x10, 0xfb, 0xda, 0xea, 0x14,
  0x02, 0x0e, 0x6f, 0x07, 0xeb, 0xf8, 0xf9, 0xf9, 0xf5, 0x01, 0x07, 0x00,
  0x0d, 0x06, 0xfd, 0x06, 0x12, 0x02, 0x1e, 0x17, 0x0d, 0x0c, 0xfb, 0xec,
  0xfe, 0xff, 0xf7, 0x02, 0x81, 0xf4, 0x1a, 0xf6, 0xed, 0xf7, 0x03, 0xf8,
  0x06, 0x01, 0xfd, 0x04, 0xfe, 0x81, 0xe5, 0x28, 0x01, 0xff, 0x01, 0x0d,
  0xec, 0x05, 0x00, 0xef, 0xf7, 0xf6, 0x22, 0x32, 0xea, 0xd5, 0xea, 0x00,
  0x09, 0x1b, 0x0b, 0x01, 0x0e, 0x09, 0x13, 0x46, 0xca, 0xf1, 0xfd, 0x03,
  0x00, 0x09, 0x0d, 0x02, 0xff, 0x07, 0x05, 0xf8, 0x51, 0xe6, 0x20, 0xed,
  0xdf, 0xff, 0xe6, 0x0d, 0x1e, 0x0b, 0xfa, 0x25, 0x13, 0x0a, 0xf2, 0x29,
  0x22, 0x21, 0xfe, 0x1b, 0xfb, 0xdb, 0x04, 0x01, 0xf1, 0xee, 0x01, 0x81,
  0x15, 0xf1, 0x06, 0x12, 0xf8, 0x02, 0x0b, 0xfb, 0x13, 0x04, 0x1d, 0x7a,
  0x02, 0x17, 0xeb, 0xec, 0x20, 0xe8, 0x1a, 0xc4, 0x3a, 0xd7, 0x09, 0x13,
  0xe6, 0xfd, 0xd6, 0x0c, 0x28, 0xb7, 0xe2, 0x00, 0x3c, 0xed, 0x0a, 0xe8,
  0x2b, 0x6f, 0x69, 0x81, 0x41, 0xd7, 0xe9, 0xd3, 0xeb, 0x44, 0xe9, 0x11,
  0xf1, 0xfa, 0x00, 0x67, 0x0d, 0xf6, 0xbd, 0xda, 0x20, 0xcd, 0xfc, 0x08,
  0x16, 0x0c, 0xd0, 0x0e, 0xed, 0x76, 0x1b, 0x97, 0xc6, 0x4a, 0xc1, 0xfb,
  0xd8, 0x14, 0x27, 0x01, 0x5d, 0x71, 0x35, 0xb3, 0x81, 0xd6, 0x36, 0x07,
  0xdf, 0xee, 0xf8, 0x4f, 0xf5, 0xc7, 0x62, 0x12, 0x40, 0x16, 0xff, 0xf9,
  0xf2, 0xd4, 0xcf, 0xf9, 0xd8, 0x19, 0xf1, 0x1c, 0x4f, 0x6e, 0xf2, 0xf6,
  0xe6, 0xf8, 0xce, 0xe1, 0x07, 0xf8, 0xe2, 0x7f, 0x2c, 0xef, 0x64, 0x2e,
  0xc7, 0xf2, 0xec, 0xea, 0xe8, 0xf3, 0xde, 0xee, 0x6e, 0xf9, 0xff, 0xff,
  0x04, 0x00, 0x00, 0x00, 0x20, 0x00, 0x00, 0x00, 0xc6, 0xed, 0xff, 0xff,
  0x40, 0x03, 0x00, 0x00, 0xd7, 0xfd, 0xff, 0xff, 0xf3, 0xf9, 0xff, 0xff,
  0x5f, 0xf7, 0xff, 0xff, 0x76, 0xe5, 0xff, 0xff, 0xe2, 0xdd, 0xff, 0xff,
  0x11, 0xe5, 0xff, 0xff, 0x9a, 0xf9, 0xff, 0xff, 0x04, 0x00, 0x00, 0x00,
  0x80, 0x01, 0x00, 0x00, 0x0a, 0xb2, 0xea, 0xfd, 0x08, 0xfe, 0xf8, 0xf6,
  0x05, 0x81, 0xfc, 0xfa, 0xf8, 0x08, 0xf9, 0xef, 0x07, 0xb1, 0xff, 0xf0,
  0xf8, 0x02, 0x22, 0x06, 0xf6, 0x37, 0x32, 0x16, 0x19, 0x93, 0xc5, 0xe3,
  0x07, 0xe1, 0xff, 0x34, 0xe4, 0x8c, 0xf8, 0x10, 0x17, 0xe0, 0x7f, 0x2b,
  0xf1, 0xbe, 0xbf, 0xe3, 0xed, 0xdf, 0x11, 0xf5, 0xec, 0xf3, 0x05, 0x06,
  0x52, 0xe0, 0x19, 0xe7, 0xf0, 0xfd, 0xf3, 0x02, 0xee, 0xee, 0x0f, 0x81,
  0xee, 0xfe, 0xc1, 0x27, 0x8a, 0x04, 0xd3, 0x0c, 0x34, 0xb7, 0xf8, 0xf4,
  0xdd, 0xf4, 0xc1, 0x26, 0xfb, 0x18, 0xf5, 0xfe, 0xfa, 0x82, 0x81, 0x05,
  0xff, 0x00, 0x47, 0x03, 0x86, 0x21, 0xa0, 0xb3, 0xaa, 0xb2, 0x18, 0x1d,
  0xc5, 0xf4, 0x81, 0xb0, 0x88, 0xe5, 0x0b, 0x1a, 0x07, 0xc7, 0xe2, 0x94,
  0xd8, 0x40, 0x13, 0x18, 0xd4, 0xff, 0xef, 0xcf, 0xf4, 0xe6, 0x8e, 0xcd,
  0xc3, 0x01, 0xdf, 0xea, 0xd8, 0xe5, 0x81, 0xb8, 0xbd, 0xfa, 0xe9, 0xe1,
  0xec, 0xd1, 0x99, 0xa5, 0x36, 0xe2, 0xcf, 0x28, 0x14, 0xf3, 0xef, 0xff,
  0xf6, 0x91, 0xd7, 0xec, 0xfb, 0x04, 0xe3, 0xf4, 0xef, 0x81, 0xf6, 0xa7,
  0xdf, 0x27, 0xed, 0x15, 0x81, 0x00, 0xa8, 0xe9, 0xfe, 0x0c, 0x43, 0x14,
  0xb2, 0xff, 0xa9, 0xe5, 0xf2, 0x11, 0x06, 0x3f, 0x0a, 0x9b, 0x86, 0xfc,
  0xf8, 0x17, 0x00, 0xac, 0x06, 0x81, 0x0a, 0xe7, 0xf0, 0x0b, 0xf6, 0xeb,
  0x03, 0xdf, 0xea, 0xfd, 0x12, 0xb3, 0xeb, 0xfe, 0xf4, 0xd3, 0xd6, 0x12,
  0x0b, 0xb1, 0xdf, 0xcd, 0xd6, 0x09, 0xc8, 0x71, 0xd3, 0xb9, 0x00, 0xc1,
  0xff, 0x0a, 0x81, 0x37, 0xf9, 0xf5, 0x09, 0xb7, 0x43, 0xc8, 0xb8, 0x41,
  0x17, 0x2f, 0xf0, 0xc7, 0xdf, 0x06, 0x9a, 0xf5, 0xc6, 0xd3, 0xde, 0x32,
  0xf9, 0xe6, 0xb7, 0xd1, 0x81, 0x0b, 0xe6, 0xe9, 0x17, 0xe0, 0x9e, 0xe6,
  0xa2, 0x15, 0xd8, 0x2e, 0xe7, 0xd9, 0xfe, 0xda, 0x0a, 0x25, 0xfe, 0x00,
  0xc7, 0xef, 0x03, 0xdb, 0x11, 0xfb, 0x01, 0x0a, 0x81, 0xfd, 0x05, 0xdc,
  0xf6, 0xf3, 0xfd, 0x0f, 0x14, 0x81, 0xfe, 0x14, 0x0f, 0x14, 0xc2, 0xd2,
  0xef, 0xdf, 0x1e, 0xe8, 0xd2, 0x0a, 0xa1, 0xfc, 0xf2, 0xe7, 0x09, 0xe8,
  0x47, 0xe1, 0xc0, 0x0b, 0xe9, 0x06, 0xe8, 0xf5, 0xee, 0x81, 0xf2, 0xeb,
  0xf3, 0xff, 0xd6, 0xff, 0xc4, 0xc2, 0x06, 0xe9, 0xfe, 0xf9, 0xcc, 0x02,
  0xc6, 0x05, 0xf7, 0x2a, 0x12, 0x8d, 0x00, 0xd0, 0xe2, 0xfa, 0xea, 0xac,
  0x0a, 0xda, 0xfc, 0xe9, 0xd8, 0xd2, 0x4e, 0x81, 0xf2, 0xf0, 0x07, 0xdc,
  0xd7, 0x95, 0xff, 0xd9, 0x00, 0xc3, 0xe9, 0xd4, 0x8a, 0x32, 0x31, 0x24,
  0xf1, 0x91, 0xdd, 0xd6, 0x81, 0xf4, 0xf7, 0x0c, 0x1d, 0xe3, 0xf3, 0xc8,
  0xe3, 0x1c, 0xf6, 0x46, 0x26, 0xfb, 0xff, 0xff, 0x04, 0x00, 0x00, 0x00,
  0x40, 0x00, 0x00, 0x00, 0x79, 0xfe, 0xff, 0xff, 0x6c, 0xf8, 0xff, 0xff,
  0x76, 0xfb, 0xff, 0xff, 0x51, 0xf9, 0xff, 0xff, 0x2a, 0xfb, 0xff, 0xff,
  0x85, 0x04, 0x00, 0x00, 0x89, 0xfa, 0xff, 0xff, 0xde, 0xfd, 0xff, 0xff,
  0xbe, 0xff, 0xff, 0xff, 0x29, 0xf9, 0xff, 0xff, 0xf5, 0xff, 0xff, 0xff,
  0xc0, 0xfe, 0xff, 0xff, 0xe3, 0xfe, 0xff, 0xff, 0x23, 0xff, 0xff, 0xff,
  0x81, 0xff, 0xff, 0xff, 0xd0, 0xfd, 0xff, 0xff, 0x72, 0xfb, 0xff, 0xff,
  0x04, 0x00, 0x00, 0x00, 0x40, 0x03, 0x00, 0x00, 0xf7, 0x01, 0xfb, 0xe5,
  0x17, 0xf7, 0xaa, 0x16, 0xf7, 0xea, 0x19, 0xf9, 0xf7, 0x1b, 0x0c, 0x11,
  0x0f, 0x01, 0xe2, 0xe5, 0x14, 0x03, 0xd9, 0x19, 0x1d, 0xeb, 0x28, 0xef,
  0xf7, 0x25, 0x0c, 0x13, 0x11, 0x06, 0xfd, 0xc5, 0x13, 0x01, 0x07, 0x10,
  0xd2, 0xe6, 0x24, 0xf4, 0xf0, 0x0f, 0x16, 0x0d, 0x20, 0x12, 0x02, 0xd3,
  0x13, 0x12, 0xe9, 0x0e, 0x9b, 0xf0, 0x27, 0xe1, 0xcb, 0x19, 0x13, 0x0e,
  0x1c, 0x06, 0x07, 0xd1, 0x12, 0xfe, 0xff, 0x08, 0xa8, 0xee, 0x2c, 0xdd,
  0xbe, 0x1a, 0x1e, 0x0b, 0x0e, 0x03, 0xf2, 0xda, 0x13, 0xfd, 0xc9, 0x0c,
  0x9f, 0x04, 0x20, 0xdd, 0xd1, 0x29, 0x1a, 0x02, 0x1e, 0xfb, 0xfb, 0xe5,
  0x0c, 0x03, 0xe1, 0x12, 0xd0, 0xf5, 0x1b, 0xd1, 0xe6, 0x25, 0x28, 0x14,
  0x1c, 0xea, 0x00, 0xea, 0x19, 0x09, 0xe0, 0x02, 0xc1, 0xe1, 0x30, 0xc6,
  0xdb, 0x21, 0x1b, 0xfe, 0x18, 0xfc, 0x03, 0xef, 0x0e, 0x10, 0x08, 0xfa,
  0x92, 0xf0, 0x1b, 0xdd, 0xad, 0x15, 0x1c, 0x19, 0x1e, 0xf1, 0x08, 0xc7,
  0x0b, 0x19, 0xec, 0x02, 0xcc, 0xf8, 0x14, 0xcf, 0xbc, 0x05, 0x17, 0x06,
  0x03, 0xfe, 0x0b, 0xff, 0x0b, 0x16, 0xf5, 0xff, 0xcc, 0xf4, 0x1c, 0xda,
  0xce, 0xe3, 0x2b, 0xfb, 0x18, 0x00, 0xfb, 0xd6, 0x1d, 0x14, 0xc8, 0x11,
  0xde, 0xe7, 0x16, 0xd9, 0xdf, 0xea, 0x21, 0x02, 0x02, 0x01, 0x0c, 0xdd,
  0xf4, 0x05, 0xe9, 0xf5, 0xcd, 0xfd, 0xd7, 0xb4, 0xd3, 0x28, 0x10, 0xf5,
  0xf1, 0x12, 0x12, 0xf3, 0xdb, 0xdc, 0x51, 0xd5, 0x14, 0x0d, 0x07, 0x22,
  0x18, 0xdb, 0x0a, 0xdd, 0xf9, 0x0a, 0x23, 0x16, 0xf0, 0xbd, 0x15, 0xc8,
  0xfe, 0x03, 0xe8, 0x18, 0x0b, 0xd4, 0x0a, 0x98, 0xd9, 0x05, 0x0d, 0x06,
  0xf7, 0x81, 0xff, 0xd4, 0x03, 0x12, 0xb3, 0x0d, 0x0b, 0x0b, 0xe5, 0xa6,
  0xdb, 0x11, 0x10, 0x00, 0xde, 0xb8, 0x01, 0xc6, 0x00, 0x22, 0xbc, 0x03,
  0x00, 0xf2, 0xdd, 0xaf, 0xd8, 0x06, 0x1a, 0xf6, 0xd4, 0xd2, 0x10, 0xc3,
  0xf9, 0x15, 0xd4, 0xff, 0x0a, 0xdb, 0xdc, 0xad, 0xbe, 0x12, 0x0e, 0x1a,
  0xc9, 0xd3, 0x27, 0x9f, 0xfb, 0x09, 0xeb, 0xe9, 0x05, 0xab, 0xe8, 0x94,
  0xdf, 0x1a, 0x13, 0xed, 0xe6, 0xcb, 0x19, 0xd5, 0xf4, 0x1c, 0xc3, 0xf2,
  0xfa, 0xd6, 0xe0, 0xa6, 0xda, 0x24, 0xf4, 0xeb, 0xbe, 0xe1, 0x03, 0xb5,
  0x03, 0x11, 0xba, 0xfc, 0x03, 0xcf, 0x02, 0xbd, 0xf3, 0x22, 0x02, 0xf9,
  0xe9, 0xc3, 0x00, 0xc5, 0x02, 0x0b, 0xcf, 0xe8, 0x1b, 0xdf, 0xfd, 0xb3,
  0xfb, 0x1b, 0xfe, 0x04, 0xcc, 0xcf, 0x0d, 0xd5, 0xe8, 0x0b, 0x02, 0xee,
  0x09, 0xf0, 0x0f, 0xd7, 0xf5, 0x15, 0x01, 0xda, 0xcc, 0xbd, 0xfe, 0xec,
  0xe7, 0x0e, 0xdc, 0xf2, 0x0f, 0xf7, 0xf7, 0xd7, 0x09, 0x17, 0x05, 0xf7,
  0xe9, 0xaf, 0x1f, 0xd6, 0xfd, 0x22, 0x23, 0x08, 0x1a, 0x15, 0xfb, 0xdb,
  0xda, 0xf5, 0x05, 0xfa, 0x02, 0xdf, 0xfc, 0xf0, 0x03, 0x0d, 0xf9, 0x10,
  0x1e, 0x9a, 0x06, 0xf4, 0x0d, 0x00, 0xe1, 0x04, 0xe7, 0xf2, 0x1a, 0xe8,
  0xfb, 0x06, 0xec, 0xf2, 0xfb, 0xfe, 0xfb, 0x0c, 0x16, 0xfb, 0xf7, 0x1d,
  0xee, 0x0d, 0x10, 0xe8, 0x10, 0x03, 0xe1, 0x04, 0xfb, 0xf7, 0xf3, 0x02,
  0x16, 0xfc, 0x0f, 0x1f, 0xec, 0x0d, 0x0d, 0xf1, 0x07, 0x19, 0xed, 0x04,
  0xfc, 0xf0, 0x0f, 0x08, 0x17, 0x02, 0x14, 0x12, 0xf3, 0x0a, 0x16, 0xef,
  0x0c, 0x1a, 0xf6, 0x02, 0xf0, 0xee, 0x08, 0x0c, 0x0e, 0xf1, 0x12, 0x18,
  0xef, 0x12, 0x1e, 0xfa, 0xf6, 0x0e, 0xf1, 0x12, 0x00, 0xdf, 0x0c, 0x02,
  0x16, 0xf4, 0x06, 0x1b, 0xe4, 0x01, 0x2b, 0x02, 0x03, 0x20, 0xf3, 0x12,
  0xf7, 0xe8, 0x0c, 0x04, 0x0c, 0xf3, 0x14, 0x11, 0xe4, 0xfd, 0x0b, 0xf0,
  0xf5, 0x1c, 0xed, 0x0c, 0xfe, 0xd2, 0x15, 0x13, 0x18, 0xf6, 0x12, 0x0e,
  0xf3, 0xfb, 0x30, 0x03, 0x02, 0x0e, 0xee, 0x10, 0x0b, 0xce, 0x0b, 0x0c,
  0x0d, 0x00, 0x0b, 0xf8, 0xf8, 0x13, 0x1b, 0x0f, 0x0a, 0x15, 0x05, 0x17,
  0x02, 0xef, 0x0c, 0x0e, 0x0b, 0xf3, 0x0d, 0x0a, 0xf7, 0x18, 0x14, 0xf7,
  0xfe, 0x0e, 0x11, 0x0d, 0xf5, 0xdb, 0x0e, 0x13, 0x06, 0xf0, 0x18, 0xf8,
  0xff, 0x0f, 0x2c, 0xf4, 0xfc, 0x1a, 0x0e, 0x0f, 0x03, 0xd7, 0x17, 0x0a,
  0x13, 0x02, 0x08, 0x00, 0xe3, 0x14, 0x15, 0xeb, 0xe8, 0x03, 0xeb, 0x11,
  0xfd, 0x01, 0xf5, 0x09, 0x27, 0x00, 0x10, 0xe9, 0x01, 0x0d, 0x0f, 0x13,
  0xee, 0xfb, 0x10, 0xfa, 0xfa, 0x2f, 0x0b, 0x0f, 0xf6, 0xf6, 0x10, 0xf6,
  0x20, 0x0a, 0xa5, 0x24, 0x02, 0xed, 0x18, 0x00, 0xe5, 0x1d, 0xff, 0x0b,
  0xdd, 0xf0, 0xc1, 0x05, 0x1e, 0x0f, 0xef, 0x16, 0xc6, 0xf9, 0x08, 0xff,
  0xd6, 0x1a, 0x00, 0x10, 0xd5, 0x08, 0xd9, 0xf9, 0x18, 0x22, 0xc6, 0x17,
  0x08, 0xc6, 0x09, 0x0a, 0xfe, 0x08, 0xb2, 0x05, 0xda, 0xe7, 0xd1, 0x1d,
  0x17, 0x0f, 0xbe, 0x1c, 0x29, 0xbb, 0x11, 0xf5, 0x14, 0x15, 0xec, 0x0e,
  0xce, 0x04, 0xb3, 0x0f, 0x10, 0x1b, 0xc6, 0x14, 0x21, 0xef, 0x0f, 0xf9,
  0x17, 0x12, 0xe0, 0x05, 0xc9, 0xf4, 0xda, 0x0c, 0x2a, 0x1d, 0xd5, 0x22,
  0x35, 0xe2, 0x0f, 0x01, 0x04, 0x16, 0xc8, 0xf6, 0xc7, 0xef, 0xd5, 0x0b,
  0x1b, 0x28, 0xd3, 0x0e, 0x27, 0xed, 0x0b, 0x03, 0x15, 0x2c, 0x94, 0x04,
  0xcc, 0xe5, 0xbc, 0x0f, 0x21, 0x03, 0xde, 0x17, 0x23, 0xea, 0x14, 0x18,
  0x17, 0x18, 0x88, 0x05, 0xbf, 0xed, 0xdf, 0x1c, 0x17, 0x04, 0xf0, 0x09,
  0x24, 0xf8, 0xf6, 0x11, 0x10, 0x0e, 0x9d, 0x1b, 0xeb, 0xe5, 0xe0, 0x2e,
  0x1d, 0x27, 0xf3, 0x27, 0x2d, 0xe1, 0xf8, 0x0e, 0x19, 0xfc, 0x8e, 0xfe,
  0xcd, 0xfd, 0xdd, 0x21, 0x1e, 0x13, 0xd5, 0x22, 0x1b, 0xd4, 0x00, 0x02,
  0x1c, 0x2f, 0x98, 0x08, 0xe9, 0xee, 0xd9, 0x0f, 0x1a, 0x23, 0xf3, 0x23,
  0x28, 0xf4, 0xe7, 0x05, 0x25, 0x24, 0xaa, 0x06, 0x0b, 0x04, 0xe0, 0x0e,
  0xf8, 0x13, 0x10, 0x0e, 0x2e, 0xf8, 0xf8, 0x0e, 0xe0, 0xec, 0x9e, 0xea,
  0xbe, 0xfe, 0xff, 0xff, 0x04, 0x00, 0x00, 0x00, 0x10, 0x00, 0x00, 0x00,
  0x08, 0xfe, 0xff, 0xff, 0xa1, 0x17, 0x00, 0x00, 0x04, 0xfe, 0xff, 0xff,
  0xd2, 0xec, 0xff, 0xff, 0xda, 0xfe, 0xff, 0xff, 0x04, 0x00, 0x00, 0x00,
  0x08, 0x00, 0x00, 0x00, 0xff, 0xff, 0xff, 0xff, 0xd0, 0x00, 0x00, 0x00,
  0xee, 0xfe, 0xff, 0xff, 0x04, 0x00, 0x00, 0x00, 0x10, 0x00, 0x00, 0x00,
  0x01, 0x00, 0x00, 0x00, 0x19, 0x00, 0x00, 0x00, 0x01, 0x00, 0x00, 0x00,
  0x10, 0x00, 0x00, 0x00, 0x0a, 0xff, 0xff, 0xff, 0x04, 0x00, 0x00, 0x00,
  0x10, 0x00, 0x00, 0x00, 0x01, 0x00, 0x00, 0x00, 0x01, 0x00, 0x00, 0x00,
  0x19, 0x00, 0x00, 0x00, 0x08, 0x00, 0x00, 0x00, 0x26, 0xff, 0xff, 0xff,
  0x04, 0x00, 0x00, 0x00, 0x10, 0x00, 0x00, 0x00, 0x01, 0x00, 0x00, 0x00,
  0x32, 0x00, 0x00, 0x00, 0x01, 0x00, 0x00, 0x00, 0x08, 0x00, 0x00, 0x00,
  0x42, 0xff, 0xff, 0xff, 0x04, 0x00, 0x00, 0x00, 0x10, 0x00, 0x00, 0x00,
  0x01, 0x00, 0x00, 0x00, 0x01, 0x00, 0x00, 0x00, 0x32, 0x00, 0x00, 0x00,
  0x0d, 0x00, 0x00, 0x00, 0x90, 0xf0, 0xff, 0xff, 0x94, 0xf0, 0xff, 0xff,
  0x0f, 0x00, 0x00, 0x00, 0x4d, 0x4c, 0x49, 0x52, 0x20, 0x43, 0x6f, 0x6e,
  0x76, 0x65, 0x72, 0x74, 0x65, 0x64, 0x2e, 0x00, 0x01, 0x00, 0x00, 0x00,
  0x14, 0x00, 0x00, 0x00, 0x00, 0x00, 0x0e, 0x00, 0x18, 0x00, 0x14, 0x00,
  0x10, 0x00, 0x0c, 0x00, 0x08, 0x00, 0x04, 0x00, 0x0e, 0x00, 0x00, 0x00,
  0x14, 0x00, 0x00, 0x00, 0x1c, 0x00, 0x00, 0x00, 0x84, 0x02, 0x00, 0x00,
  0x88, 0x02, 0x00, 0x00, 0x8c, 0x02, 0x00, 0x00, 0x04, 0x00, 0x00, 0x00,
  0x6d, 0x61, 0x69, 0x6e, 0x00, 0x00, 0x00, 0x00, 0x0b, 0x00, 0x00, 0x00,
  0x48, 0x02, 0x00, 0x00, 0xec, 0x01, 0x00, 0x00, 0xb8, 0x01, 0x00, 0x00,
  0x68, 0x01, 0x00, 0x00, 0x44, 0x01, 0x00, 0x00, 0x00, 0x01, 0x00, 0x00,
  0xdc, 0x00, 0x00, 0x00, 0x9c, 0x00, 0x00, 0x00, 0x78, 0x00, 0x00, 0x00,
  0x40, 0x00, 0x00, 0x00, 0x04, 0x00, 0x00, 0x00, 0x4a, 0xfe, 0xff, 0xff,
  0x1c, 0x00, 0x00, 0x00, 0x00, 0x00, 0x00, 0x09, 0x1c, 0x00, 0x00, 0x00,
  0x20, 0x00, 0x00, 0x00, 0x04, 0x00, 0x00, 0x00, 0x00, 0x00, 0x06, 0x00,
  0x08, 0x00, 0x04, 0x00, 0x06, 0x00, 0x00, 0x00, 0x00, 0x00, 0x80, 0x3f,
  0x01, 0x00, 0x00, 0x00, 0x16, 0x00, 0x00, 0x00, 0x01, 0x00, 0x00, 0x00,
  0x15, 0x00, 0x00, 0x00, 0x82, 0xfe, 0xff, 0xff, 0x14, 0x00, 0x00, 0x00,
  0x00, 0x00, 0x00, 0x08, 0x10, 0x00, 0x00, 0x00, 0x14, 0x00, 0x00, 0x00,
  0x03, 0x00, 0x00, 0x00, 0x68, 0xf1, 0xff, 0xff, 0x01, 0x00, 0x00, 0x00,
  0x15, 0x00, 0x00, 0x00, 0x03, 0x00, 0x00, 0x00, 0x14, 0x00, 0x00, 0x00,
  0x07, 0x00, 0x00, 0x00, 0x06, 0x00, 0x00, 0x00, 0x5a, 0xfe, 0xff, 0xff,
  0x08, 0x00, 0x00, 0x00, 0x0c, 0x00, 0x00, 0x00, 0x01, 0x00, 0x00, 0x00,
  0x14, 0x00, 0x00, 0x00, 0x02, 0x00, 0x00, 0x00, 0x13, 0x00, 0x00, 0x00,
  0x05, 0x00, 0x00, 0x00, 0xd6, 0xfe, 0xff, 0xff, 0x14, 0x00, 0x00, 0x00,
  0x00, 0x00, 0x00, 0x05, 0x20, 0x00, 0x00, 0x00, 0x24, 0x00, 0x00, 0x00,
  0x02, 0x00, 0x00, 0x00, 0x42, 0xff, 0xff, 0xff, 0x02, 0x00, 0x00, 0x00,
  0x01, 0x00, 0x00, 0x00, 0x02, 0x00, 0x00, 0x00, 0x01, 0x00, 0x00, 0x00,
  0x01, 0x00, 0x00, 0x00, 0x13, 0x00, 0x00, 0x00, 0x01, 0x00, 0x00, 0x00,
  0x12, 0x00, 0x00, 0x00, 0xb6, 0xfe, 0xff, 0xff, 0x08, 0x00, 0x00, 0x00,
  0x0c, 0x00, 0x00, 0x00, 0x01, 0x00, 0x00, 0x00, 0x12, 0x00, 0x00, 0x00,
  0x02, 0x00, 0x00, 0x00, 0x11, 0x00, 0x00, 0x00, 0x04, 0x00, 0x00, 0x00,
  0x32, 0xff, 0xff, 0xff, 0x14, 0x00, 0x00, 0x00, 0x00, 0x00, 0x00, 0x01,
  0x1c, 0x00, 0x00, 0x00, 0x20, 0x00, 0x00, 0x00, 0x01, 0x00, 0x00, 0x00,
  0x24, 0xff, 0xff, 0xff, 0x00, 0x00, 0x00, 0x01, 0x01, 0x00, 0x00, 0x00,
  0x01, 0x00, 0x00, 0x00, 0x01, 0x00, 0x00, 0x00, 0x11, 0x00, 0x00, 0x00,
  0x03, 0x00, 0x00, 0x00, 0x10, 0x00, 0x00, 0x00, 0x09, 0x00, 0x00, 0x00,
  0x08, 0x00, 0x00, 0x00, 0x16, 0xff, 0xff, 0xff, 0x08, 0x00, 0x00, 0x00,
  0x0c, 0x00, 0x00, 0x00, 0x01, 0x00, 0x00, 0x00, 0x10, 0x00, 0x00, 0x00,
  0x02, 0x00, 0x00, 0x00, 0x0f, 0x00, 0x00, 0x00, 0x03, 0x00, 0x00, 0x00,
  0x92, 0xff, 0xff, 0xff, 0x24, 0x00, 0x00, 0x00, 0x00, 0x00, 0x00, 0x05,
  0x30, 0x00, 0x00, 0x00, 0x34, 0x00, 0x00, 0x00, 0x02, 0x00, 0x00, 0x00,
  0x00, 0x00, 0x0e, 0x00, 0x14, 0x00, 0x00, 0x00, 0x10, 0x00, 0x0c, 0x00,
  0x08, 0x00, 0x04, 0x00, 0x0e, 0x00, 0x00, 0x00, 0x02, 0x00, 0x00, 0x00,
  0x01, 0x00, 0x00, 0x00, 0x02, 0x00, 0x00, 0x00, 0x01, 0x00, 0x00, 0x00,
  0x01, 0x00, 0x00, 0x00, 0x0f, 0x00, 0x00, 0x00, 0x01, 0x00, 0x00, 0x00,
  0x0e, 0x00, 0x00, 0x00, 0x82, 0xff, 0xff, 0xff, 0x08, 0x00, 0x00, 0x00,
  0x0c, 0x00, 0x00, 0x00, 0x01, 0x00, 0x00, 0x00, 0x0e, 0x00, 0x00, 0x00,
  0x02, 0x00, 0x00, 0x00, 0x0d, 0x00, 0x00, 0x00, 0x02, 0x00, 0x00, 0x00,
  0x00, 0x00, 0x0e, 0x00, 0x18, 0x00, 0x14, 0x00, 0x10, 0x00, 0x0c, 0x00,
  0x0b, 0x00, 0x04, 0x00, 0x0e, 0x00, 0x00, 0x00, 0x20, 0x00, 0x00, 0x00,
  0x00, 0x00, 0x00, 0x01, 0x28, 0x00, 0x00, 0x00, 0x2c, 0x00, 0x00, 0x00,
  0x01, 0x00, 0x00, 0x00, 0x0c, 0x00, 0x10, 0x00, 0x00, 0x00, 0x0c, 0x00,
  0x08, 0x00, 0x07, 0x00, 0x0c, 0x00, 0x00, 0x00, 0x00, 0x00, 0x00, 0x01,
  0x01, 0x00, 0x00, 0x00, 0x01, 0x00, 0x00, 0x00, 0x01, 0x00, 0x00, 0x00,
  0x0d, 0x00, 0x00, 0x00, 0x03, 0x00, 0x00, 0x00, 0x0c, 0x00, 0x00, 0x00,
  0x0b, 0x00, 0x00, 0x00, 0x0a, 0x00, 0x00, 0x00, 0x00, 0x00, 0x0a, 0x00,
  0x0c, 0x00, 0x00, 0x00, 0x08, 0x00, 0x04, 0x00, 0x0a, 0x00, 0x00, 0x00,
  0x08, 0x00, 0x00, 0x00, 0x0c, 0x00, 0x00, 0x00, 0x01, 0x00, 0x00, 0x00,
  0x0c, 0x00, 0x00, 0x00, 0x02, 0x00, 0x00, 0x00, 0x00, 0x00, 0x00, 0x00,
  0x01, 0x00, 0x00, 0x00, 0x01, 0x00, 0x00, 0x00, 0x16, 0x00, 0x00, 0x00,
  0x01, 0x00, 0x00, 0x00, 0x00, 0x00, 0x00, 0x00, 0x17, 0x00, 0x00, 0x00,
  0xe8, 0x0c, 0x00, 0x00, 0x78, 0x0c, 0x00, 0x00, 0x24, 0x0c, 0x00, 0x00,
  0xcc, 0x0b, 0x00, 0x00, 0x74, 0x0b, 0x00, 0x00, 0x28, 0x0b, 0x00, 0x00,
  0xac, 0x0a, 0x00, 0x00, 0x40, 0x0a, 0x00, 0x00, 0x14, 0x09, 0x00, 0x00,
  0xe8, 0x07, 0x00, 0x00, 0x1c, 0x07, 0x00, 0x00, 0x50, 0x06, 0x00, 0x00,
  0xcc, 0x05, 0x00, 0x00, 0xe0, 0x04, 0x00, 0x00, 0x5c, 0x04, 0x00, 0x00,
  0xe0, 0x03, 0x00, 0x00, 0x5c, 0x03, 0x00, 0x00, 0x60, 0x02, 0x00, 0x00,
  0xdc, 0x01, 0x00, 0x00, 0x60, 0x01, 0x00, 0x00, 0xf4, 0x00, 0x00, 0x00,
  0x70, 0x00, 0x00, 0x00, 0x04, 0x00, 0x00, 0x00, 0x8a, 0xf3, 0xff, 0xff,
  0x00, 0x00, 0x00, 0x01, 0x14, 0x00, 0x00, 0x00, 0x30, 0x00, 0x00, 0x00,
  0x17, 0x00, 0x00, 0x00, 0x00, 0x00, 0x00, 0x09, 0x44, 0x00, 0x00, 0x00,
  0x74, 0xf3, 0xff, 0xff, 0x08, 0x00, 0x00, 0x00, 0x10, 0x00, 0x00, 0x00,
  0x01, 0x00, 0x00, 0x00, 0x80, 0xff, 0xff, 0xff, 0xff, 0xff, 0xff, 0xff,
  0x01, 0x00, 0x00, 0x00, 0x00, 0x00, 0x80, 0x3b, 0x19, 0x00, 0x00, 0x00,
  0x53, 0x74, 0x61, 0x74, 0x65, 0x66, 0x75, 0x6c, 0x50, 0x61, 0x72, 0x74,
  0x69, 0x74, 0x69, 0x6f, 0x6e, 0x65, 0x64, 0x43, 0x61, 0x6c, 0x6c, 0x3a,
  0x30, 0x00, 0x00, 0x00, 0x02, 0x00, 0x00, 0x00, 0x01, 0x00, 0x00, 0x00,
  0x04, 0x00, 0x00, 0x00, 0xf2, 0xf3, 0xff, 0xff, 0x00, 0x00, 0x00, 0x01,
  0x14, 0x00, 0x00, 0x00, 0x30, 0x00, 0x00, 0x00, 0x16, 0x00, 0x00, 0x00,
  0x00, 0x00, 0x00, 0x09, 0x5c, 0x00, 0x00, 0x00, 0xdc, 0xf3, 0xff, 0xff,
  0x08, 0x00, 0x00, 0x00, 0x10, 0x00, 0x00, 0x00, 0x01, 0x00, 0x00, 0x00,
  0x33, 0x00, 0x00, 0x00, 0x00, 0x00, 0x00, 0x00, 0x01, 0x00, 0x00, 0x00,
  0x08, 0x34, 0x03, 0x3e, 0x32, 0x00, 0x00, 0x00, 0x73, 0x65, 0x71, 0x75,
  0x65, 0x6e, 0x74, 0x69, 0x61, 0x6c, 0x2f, 0x79, 0x5f, 0x70, 0x72, 0x65,
  0x64, 0x2f, 0x4d, 0x61, 0x74, 0x4d, 0x75, 0x6c, 0x3b, 0x73, 0x65, 0x71,
  0x75, 0x65, 0x6e, 0x74, 0x69, 0x61, 0x6c, 0x2f, 0x79, 0x5f, 0x70, 0x72,
  0x65, 0x64, 0x2f, 0x42, 0x69, 0x61, 0x73, 0x41, 0x64, 0x64, 0x00, 0x00,
  0x02, 0x00, 0x00, 0x00, 0x01, 0x00, 0x00, 0x00, 0x04, 0x00, 0x00, 0x00,
  0x72, 0xf4, 0xff, 0xff, 0x00, 0x00, 0x00, 0x01, 0x14, 0x00, 0x00, 0x00,
  0x30, 0x00, 0x00, 0x00, 0x15, 0x00, 0x00, 0x00, 0x00, 0x00, 0x00, 0x09,
  0x44, 0x00, 0x00, 0x00, 0x5c, 0xf4, 0xff, 0xff, 0x08, 0x00, 0x00, 0x00,
  0x10, 0x00, 0x00, 0x00, 0x01, 0x00, 0x00, 0x00, 0x80, 0xff, 0xff, 0xff,
  0xff, 0xff, 0xff, 0xff, 0x01, 0x00, 0x00, 0x00, 0x26, 0xb5, 0xc6, 0x3c,
  0x1a, 0x00, 0x00, 0x00, 0x73, 0x65, 0x71, 0x75, 0x65, 0x6e, 0x74, 0x69,
  0x61, 0x6c, 0x2f, 0x66, 0x6c, 0x61, 0x74, 0x74, 0x65, 0x6e, 0x2f, 0x52,
  0x65, 0x73, 0x68, 0x61, 0x70, 0x65, 0x00, 0x00, 0x02, 0x00, 0x00, 0x00,
  0x01, 0x00, 0x00, 0x00, 0xd0, 0x00, 0x00, 0x00, 0xda, 0xf4, 0xff, 0xff,
  0x00, 0x00, 0x00, 0x01, 0x14, 0x00, 0x00, 0x00, 0x30, 0x00, 0x00, 0x00,
  0x14, 0x00, 0x00, 0x00, 0x00, 0x00, 0x00, 0x09, 0x4c, 0x00, 0x00, 0x00,
  0xc4, 0xf4, 0xff, 0xff, 0x08, 0x00, 0x00, 0x00, 0x10, 0x00, 0x00, 0x00,
  0x01, 0x00, 0x00, 0x00, 0x80, 0xff, 0xff, 0xff, 0xff, 0xff, 0xff, 0xff,
  0x01, 0x00, 0x00, 0x00, 0x26, 0xb5, 0xc6, 0x3c, 0x22, 0x00, 0x00, 0x00,
  0x73, 0x65, 0x71, 0x75, 0x65, 0x6e, 0x74, 0x69, 0x61, 0x6c, 0x2f, 0x6d,
  0x61, 0x78, 0x5f, 0x70, 0x6f, 0x6f, 0x6c, 0x69, 0x6e, 0x67, 0x31, 0x64,
  0x5f, 0x31, 0x2f, 0x4d, 0x61, 0x78, 0x50, 0x6f, 0x6f, 0x6c, 0x00, 0x00,
  0x04, 0x00, 0x00, 0x00, 0x01, 0x00, 0x00, 0x00, 0x0d, 0x00, 0x00, 0x00,
  0x01, 0x00, 0x00, 0x00, 0x10, 0x00, 0x00, 0x00, 0x52, 0xf5, 0xff, 0xff,
  0x00, 0x00, 0x00, 0x01, 0x14, 0x00, 0x00, 0x00, 0x34, 0x00, 0x00, 0x00,
  0x13, 0x00, 0x00, 0x00, 0x00, 0x00, 0x00, 0x09, 0x54, 0x00, 0x00, 0x00,
  0x3c, 0xf5, 0xff, 0xff, 0x08, 0x00, 0x00, 0x00, 0x14, 0x00, 0x00, 0x00,
  0x01, 0x00, 0x00, 0x00, 0x80, 0xff, 0xff, 0xff, 0xff, 0xff, 0xff, 0xff,
  0x00, 0x00, 0x00, 0x00, 0x01, 0x00, 0x00, 0x00, 0x26, 0xb5, 0xc6, 0x3c,
  0x26, 0x00, 0x00, 0x00, 0x73, 0x65, 0x71, 0x75, 0x65, 0x6e, 0x74, 0x69,
  0x61, 0x6c, 0x2f, 0x6d, 0x61, 0x78, 0x5f, 0x70, 0x6f, 0x6f, 0x6c, 0x69,
  0x6e, 0x67, 0x31, 0x64, 0x5f, 0x31, 0x2f, 0x45, 0x78, 0x70, 0x61, 0x6e,
  0x64, 0x44, 0x69, 0x6d, 0x73, 0x31, 0x00, 0x00, 0x04, 0x00, 0x00, 0x00,
  0x01, 0x00, 0x00, 0x00, 0x19, 0x00, 0x00, 0x00, 0x01, 0x00, 0x00, 0x00,
  0x10, 0x00, 0x00, 0x00, 0xd2, 0xf5, 0xff, 0xff, 0x00, 0x00, 0x00, 0x01,
  0x14, 0x00, 0x00, 0x00, 0x34, 0x00, 0x00, 0x00, 0x12, 0x00, 0x00, 0x00,
  0x00, 0x00, 0x00, 0x09, 0xcc, 0x00, 0x00, 0x00, 0xbc, 0xf5, 0xff, 0xff,
  0x08, 0x00, 0x00, 0x00, 0x14, 0x00, 0x00, 0x00, 0x01, 0x00, 0x00, 0x00,
  0x80, 0xff, 0xff, 0xff, 0xff, 0xff, 0xff, 0xff, 0x00, 0x00, 0x00, 0x00,
  0x01, 0x00, 0x00, 0x00, 0x26, 0xb5, 0xc6, 0x3c, 0x9d, 0x00, 0x00, 0x00,
  0x73, 0x65, 0x71, 0x75, 0x65, 0x6e, 0x74, 0x69, 0x61, 0x6c, 0x2f, 0x63,
  0x6f, 0x6e, 0x76, 0x31, 0x64, 0x5f, 0x31, 0x2f, 0x52, 0x65, 0x6c, 0x75,
  0x3b, 0x73, 0x65, 0x71, 0x75, 0x65, 0x6e, 0x74, 0x69, 0x61, 0x6c, 0x2f,
  0x63, 0x6f, 0x6e, 0x76, 0x31, 0x64, 0x5f, 0x31, 0x2f, 0x42, 0x69, 0x61,
  0x73, 0x41, 0x64, 0x64, 0x3b, 0x73, 0x65, 0x71, 0x75, 0x65, 0x6e, 0x74,
  0x69, 0x61, 0x6c, 0x2f, 0x63, 0x6f, 0x6e, 0x76, 0x31, 0x64, 0x5f, 0x31,
  0x2f, 0x43, 0x6f, 0x6e, 0x76, 0x31, 0x44, 0x2f, 0x53, 0x71, 0x75, 0x65,
  0x65, 0x7a, 0x65, 0x3b, 0x73, 0x65, 0x71, 0x75, 0x65, 0x6e, 0x74, 0x69,
  0x61, 0x6c, 0x2f, 0x63, 0x6f, 0x6e, 0x76, 0x31, 0x64, 0x5f, 0x31, 0x2f,
  0x42, 0x69, 0x61, 0x73, 0x41, 0x64, 0x64, 0x2f, 0x52, 0x65, 0x61, 0x64,
  0x56, 0x61, 0x72, 0x69, 0x61, 0x62, 0x6c, 0x65, 0x4f, 0x70, 0x3b, 0x73,
  0x65, 0x71, 0x75, 0x65, 0x6e, 0x74, 0x69, 0x61, 0x6c, 0x2f, 0x63, 0x6f,
  0x6e, 0x76, 0x31, 0x64, 0x5f, 0x31, 0x2f, 0x43, 0x6f, 0x6e, 0x76, 0x31,
  0x44, 0x00, 0x00, 0x00, 0x04, 0x00, 0x00, 0x00, 0x01, 0x00, 0x00, 0x00,
  0x01, 0x00, 0x00, 0x00, 0x19, 0x00, 0x00, 0x00, 0x10, 0x00, 0x00, 0x00,
  0xca, 0xf6, 0xff, 0xff, 0x00, 0x00, 0x00, 0x01, 0x14, 0x00, 0x00, 0x00,
  0x34, 0x00, 0x00, 0x00, 0x11, 0x00, 0x00, 0x00, 0x00, 0x00, 0x00, 0x09,
  0x54, 0x00, 0x00, 0x00, 0xb4, 0xf6, 0xff, 0xff, 0x08, 0x00, 0x00, 0x00,
  0x14, 0x00, 0x00, 0x00, 0x01, 0x00, 0x00, 0x00, 0x80, 0xff, 0xff, 0xff,
  0xff, 0xff, 0xff, 0xff, 0x00, 0x00, 0x00, 0x00, 0x01, 0x00, 0x00, 0x00,
  0x9b, 0x9e, 0x81, 0x3d, 0x26, 0x00, 0x00, 0x00, 0x73, 0x65, 0x71, 0x75,
  0x65, 0x6e, 0x74, 0x69, 0x61, 0x6c, 0x2f, 0x63, 0x6f, 0x6e, 0x76, 0x31,
  0x64, 0x5f, 0x31, 0x2f, 0x43, 0x6f, 0x6e, 0x76, 0x31, 0x44, 0x2f, 0x45,
  0x78, 0x70, 0x61, 0x6e, 0x64, 0x44, 0x69, 0x6d, 0x73, 0x31, 0x00, 0x00,
  0x04, 0x00, 0x00, 0x00, 0x01, 0x00, 0x00, 0x00, 0x01, 0x00, 0x00, 0x00,
  0x19, 0x00, 0x00, 0x00, 0x08, 0x00, 0x00, 0x00, 0x4a, 0xf7, 0xff, 0xff,
  0x00, 0x00, 0x00, 0x01, 0x14, 0x00, 0x00, 0x00, 0x30, 0x00, 0x00, 0x00,
  0x10, 0x00, 0x00, 0x00, 0x00, 0x00, 0x00, 0x09, 0x4c, 0x00, 0x00, 0x00,
  0x34, 0xf7, 0xff, 0xff, 0x08, 0x00, 0x00, 0x00, 0x10, 0x00, 0x00, 0x00,
  0x01, 0x00, 0x00, 0x00, 0x80, 0xff, 0xff, 0xff, 0xff, 0xff, 0xff, 0xff,
  0x01, 0x00, 0x00, 0x00, 0x9b, 0x9e, 0x81, 0x3d, 0x20, 0x00, 0x00, 0x00,
  0x73, 0x65, 0x71, 0x75, 0x65, 0x6e, 0x74, 0x69, 0x61, 0x6c, 0x2f, 0x6d,
  0x61, 0x78, 0x5f, 0x70, 0x6f, 0x6f, 0x6c, 0x69, 0x6e, 0x67, 0x31, 0x64,
  0x2f, 0x4d, 0x61, 0x78, 0x50, 0x6f, 0x6f, 0x6c, 0x00, 0x00, 0x00, 0x00,
  0x04, 0x00, 0x00, 0x00, 0x01, 0x00, 0x00, 0x00, 0x19, 0x00, 0x00, 0x00,
  0x01, 0x00, 0x00, 0x00, 0x08, 0x00, 0x00, 0x00, 0xc2, 0xf7, 0xff, 0xff,
  0x00, 0x00, 0x00, 0x01, 0x14, 0x00, 0x00, 0x00, 0x34, 0x00, 0x00, 0x00,
  0x0f, 0x00, 0x00, 0x00, 0x00, 0x00, 0x00, 0x09, 0x54, 0x00, 0x00, 0x00,
  0xac, 0xf7, 0xff, 0xff, 0x08, 0x00, 0x00, 0x00, 0x14, 0x00, 0x00, 0x00,
  0x01, 0x00, 0x00, 0x00, 0x80, 0xff, 0xff, 0xff, 0xff, 0xff, 0xff, 0xff,
  0x00, 0x00, 0x00, 0x00, 0x01, 0x00, 0x00, 0x00, 0x9b, 0x9e, 0x81, 0x3d,
  0x24, 0x00, 0x00, 0x00, 0x73, 0x65, 0x71, 0x75, 0x65, 0x6e, 0x74, 0x69,
  0x61, 0x6c, 0x2f, 0x6d, 0x61, 0x78, 0x5f, 0x70, 0x6f, 0x6f, 0x6c, 0x69,
  0x6e, 0x67, 0x31, 0x64, 0x2f, 0x45, 0x78, 0x70, 0x61, 0x6e, 0x64, 0x44,
  0x69, 0x6d, 0x73, 0x31, 0x00, 0x00, 0x00, 0x00, 0x04, 0x00, 0x00, 0x00,
  0x01, 0x00, 0x00, 0x00, 0x32, 0x00, 0x00, 0x00, 0x01, 0x00, 0x00, 0x00,
  0x08, 0x00, 0x00, 0x00, 0x42, 0xf8, 0xff, 0xff, 0x00, 0x00, 0x00, 0x01,
  0x14, 0x00, 0x00, 0x00, 0x30, 0x00, 0x00, 0x00, 0x0e, 0x00, 0x00, 0x00,
  0x00, 0x00, 0x00, 0x09, 0xbc, 0x00, 0x00, 0x00, 0x2c, 0xf8, 0xff, 0xff,
  0x08, 0x00, 0x00, 0x00, 0x10, 0x00, 0x00, 0x00, 0x01, 0x00, 0x00, 0x00,
  0x80, 0xff, 0xff, 0xff, 0xff, 0xff, 0xff, 0xff, 0x01, 0x00, 0x00, 0x00,
  0x9b, 0x9e, 0x81, 0x3d, 0x93, 0x00, 0x00, 0x00, 0x73, 0x65, 0x71, 0x75,
  0x65, 0x6e, 0x74, 0x69, 0x61, 0x6c, 0x2f, 0x63, 0x6f, 0x6e, 0x76, 0x31,
  0x64, 0x2f, 0x52, 0x65, 0x6c, 0x75, 0x3b, 0x73, 0x65, 0x71, 0x75, 0x65,
  0x6e, 0x74, 0x69, 0x61, 0x6c, 0x2f, 0x63, 0x6f, 0x6e, 0x76, 0x31, 0x64,
  0x2f, 0x42, 0x69, 0x61, 0x73, 0x41, 0x64, 0x64, 0x3b, 0x73, 0x65, 0x71,
  0x75, 0x65, 0x6e, 0x74, 0x69, 0x61, 0x6c, 0x2f, 0x63, 0x6f, 0x6e, 0x76,
  0x31, 0x64, 0x2f, 0x43, 0x6f, 0x6e, 0x76, 0x31, 0x44, 0x2f, 0x53, 0x71,
  0x75, 0x65, 0x65, 0x7a, 0x65, 0x3b, 0x73, 0x65, 0x71, 0x75, 0x65, 0x6e,
  0x74, 0x69, 0x61, 0x6c, 0x2f, 0x63, 0x6f, 0x6e, 0x76, 0x31, 0x64, 0x2f,
  0x42, 0x69, 0x61, 0x73, 0x41, 0x64, 0x64, 0x2f, 0x52, 0x65, 0x61, 0x64,
  0x56, 0x61, 0x72, 0x69, 0x61, 0x62, 0x6c, 0x65, 0x4f, 0x70, 0x3b, 0x73,
  0x65, 0x71, 0x75, 0x65, 0x6e, 0x74, 0x69, 0x61, 0x6c, 0x2f, 0x63, 0x6f,
  0x6e, 0x76, 0x31, 0x64, 0x2f, 0x43, 0x6f, 0x6e, 0x76, 0x31, 0x44, 0x00,
  0x04, 0x00, 0x00, 0x00, 0x01, 0x00, 0x00, 0x00, 0x01, 0x00, 0x00, 0x00,
  0x32, 0x00, 0x00, 0x00, 0x08, 0x00, 0x00, 0x00, 0x2a, 0xf9, 0xff, 0xff,
  0x00, 0x00, 0x00, 0x01, 0x14, 0x00, 0x00, 0x00, 0x34, 0x00, 0x00, 0x00,
  0x0d, 0x00, 0x00, 0x00, 0x00, 0x00, 0x00, 0x09, 0x54, 0x00, 0x00, 0x00,
  0x14, 0xf9, 0xff, 0xff, 0x08, 0x00, 0x00, 0x00, 0x14, 0x00, 0x00, 0x00,
  0x01, 0x00, 0x00, 0x00, 0x05, 0x00, 0x00, 0x00, 0x00, 0x00, 0x00, 0x00,
  0x00, 0x00, 0x00, 0x00, 0x01, 0x00, 0x00, 0x00, 0xaa, 0x15, 0x57, 0x3d,
  0x24, 0x00, 0x00, 0x00, 0x73, 0x65, 0x71, 0x75, 0x65, 0x6e, 0x74, 0x69,
  0x61, 0x6c, 0x2f, 0x63, 0x6f, 0x6e, 0x76, 0x31, 0x64, 0x2f, 0x43, 0x6f,
  0x6e, 0x76, 0x31, 0x44, 0x2f, 0x45, 0x78, 0x70, 0x61, 0x6e, 0x64, 0x44,
  0x69, 0x6d, 0x73, 0x31, 0x00, 0x00, 0x00, 0x00, 0x04, 0x00, 0x00, 0x00,
  0x01, 0x00, 0x00, 0x00, 0x01, 0x00, 0x00, 0x00, 0x32, 0x00, 0x00, 0x00,
  0x0d, 0x00, 0x00, 0x00, 0xaa, 0xf9, 0xff, 0xff, 0x00, 0x00, 0x00, 0x01,
  0x14, 0x00, 0x00, 0x00, 0x88, 0x00, 0x00, 0x00, 0x0c, 0x00, 0x00, 0x00,
  0x00, 0x00, 0x00, 0x09, 0x9c, 0x00, 0x00, 0x00, 0x94, 0xf9, 0xff, 0xff,
  0x08, 0x00, 0x00, 0x00, 0x4c, 0x00, 0x00, 0x00, 0x08, 0x00, 0x00, 0x00,
  0x00, 0x00, 0x00, 0x00, 0x00, 0x00, 0x00, 0x00, 0x00, 0x00, 0x00, 0x00,
  0x00, 0x00, 0x00, 0x00, 0x00, 0x00, 0x00, 0x00, 0x00, 0x00, 0x00, 0x00,
  0x00, 0x00, 0x00, 0x00, 0x00, 0x00, 0x00, 0x00, 0x00, 0x00, 0x00, 0x00,
  0x00, 0x00, 0x00, 0x00, 0x00, 0x00, 0x00, 0x00, 0x00, 0x00, 0x00, 0x00,
  0x00, 0x00, 0x00, 0x00, 0x00, 0x00, 0x00, 0x00, 0x00, 0x00, 0x00, 0x00,
  0x00, 0x00, 0x00, 0x00, 0x00, 0x00, 0x00, 0x00, 0x08, 0x00, 0x00, 0x00,
  0xcd, 0x32, 0xb1, 0x3b, 0xe9, 0x2e, 0x28, 0x3c, 0x42, 0x2e, 0x82, 0x3c,
  0xc4, 0xf2, 0x54, 0x3c, 0x83, 0x03, 0x22, 0x3c, 0xba, 0xc6, 0x99, 0x3b,
  0x6e, 0x79, 0x7b, 0x3b, 0x65, 0xac, 0xa4, 0x3b, 0x18, 0x00, 0x00, 0x00,
  0x73, 0x65, 0x71, 0x75, 0x65, 0x6e, 0x74, 0x69, 0x61, 0x6c, 0x2f, 0x63,
  0x6f, 0x6e, 0x76, 0x31, 0x64, 0x2f, 0x43, 0x6f, 0x6e, 0x76, 0x31, 0x44,
  0x00, 0x00, 0x00, 0x00, 0x04, 0x00, 0x00, 0x00, 0x08, 0x00, 0x00, 0x00,
  0x01, 0x00, 0x00, 0x00, 0x03, 0x00, 0x00, 0x00, 0x0d, 0x00, 0x00, 0x00,
  0x72, 0xfa, 0xff, 0xff, 0x00, 0x00, 0x00, 0x01, 0x14, 0x00, 0x00, 0x00,
  0x84, 0x00, 0x00, 0x00, 0x0b, 0x00, 0x00, 0x00, 0x00, 0x00, 0x00, 0x02,
  0xa8, 0x00, 0x00, 0x00, 0x5c, 0xfa, 0xff, 0xff, 0x08, 0x00, 0x00, 0x00,
  0x48, 0x00, 0x00, 0x00, 0x08, 0x00, 0x00, 0x00, 0x00, 0x00, 0x00, 0x00,
  0x00, 0x00, 0x00, 0x00, 0x00, 0x00, 0x00, 0x00, 0x00, 0x00, 0x00, 0x00,
  0x00, 0x00, 0x00, 0x00, 0x00, 0x00, 0x00, 0x00, 0x00, 0x00, 0x00, 0x00,
  0x00, 0x00, 0x00, 0x00, 0x00, 0x00, 0x00, 0x00, 0x00, 0x00, 0x00, 0x00,
  0x00, 0x00, 0x00, 0x00, 0x00, 0x00, 0x00, 0x00, 0x00, 0x00, 0x00, 0x00,
  0x00, 0x00, 0x00, 0x00, 0x00, 0x00, 0x00, 0x00, 0x00, 0x00, 0x00, 0x00,
  0x08, 0x00, 0x00, 0x00, 0xa9, 0xe0, 0x94, 0x39, 0xa1, 0x4d, 0x0d, 0x3a,
  0xbb, 0xbf, 0x5a, 0x3a, 0xe8, 0xe9, 0x32, 0x3a, 0xa9, 0x1e, 0x08, 0x3a,
  0xea, 0x32, 0x81, 0x39, 0x43, 0x48, 0x53, 0x39, 0xb8, 0x5a, 0x8a, 0x39,
  0x28, 0x00, 0x00, 0x00, 0x73, 0x65, 0x71, 0x75, 0x65, 0x6e, 0x74, 0x69,
  0x61, 0x6c, 0x2f, 0x63, 0x6f, 0x6e, 0x76, 0x31, 0x64, 0x2f, 0x42, 0x69,
  0x61, 0x73, 0x41, 0x64, 0x64, 0x2f, 0x52, 0x65, 0x61, 0x64, 0x56, 0x61,
  0x72, 0x69, 0x61, 0x62, 0x6c, 0x65, 0x4f, 0x70, 0x00, 0x00, 0x00, 0x00,
  0x01, 0x00, 0x00, 0x00, 0x08, 0x00, 0x00, 0x00, 0x3a, 0xfb, 0xff, 0xff,
  0x00, 0x00, 0x00, 0x01, 0x14, 0x00, 0x00, 0x00, 0xe8, 0x00, 0x00, 0x00,
  0x0a, 0x00, 0x00, 0x00, 0x00, 0x00, 0x00, 0x09, 0xfc, 0x00, 0x00, 0x00,
  0x24, 0xfb, 0xff, 0xff, 0x08, 0x00, 0x00, 0x00, 0x8c, 0x00, 0x00, 0x00,
  0x10, 0x00, 0x00, 0x00, 0x00, 0x00, 0x00, 0x00, 0x00, 0x00, 0x00, 0x00,
  0x00, 0x00, 0x00, 0x00, 0x00, 0x00, 0x00, 0x00, 0x00, 0x00, 0x00, 0x00,
  0x00, 0x00, 0x00, 0x00, 0x00, 0x00, 0x00, 0x00, 0x00, 0x00, 0x00, 0x00,
  0x00, 0x00, 0x00, 0x00, 0x00, 0x00, 0x00, 0x00, 0x00, 0x00, 0x00, 0x00,
  0x00, 0x00, 0x00, 0x00, 0x00, 0x00, 0x00, 0x00, 0x00, 0x00, 0x00, 0x00,
  0x00, 0x00, 0x00, 0x00, 0x00, 0x00, 0x00, 0x00, 0x00, 0x00, 0x00, 0x00,
  0x00, 0x00, 0x00, 0x00, 0x00, 0x00, 0x00, 0x00, 0x00, 0x00, 0x00, 0x00,
  0x00, 0x00, 0x00, 0x00, 0x00, 0x00, 0x00, 0x00, 0x00, 0x00, 0x00, 0x00,
  0x00, 0x00, 0x00, 0x00, 0x00, 0x00, 0x00, 0x00, 0x00, 0x00, 0x00, 0x00,
  0x00, 0x00, 0x00, 0x00, 0x00, 0x00, 0x00, 0x00, 0x00, 0x00, 0x00, 0x00,
  0x00, 0x00, 0x00, 0x00, 0x00, 0x00, 0x00, 0x00, 0x00, 0x00, 0x00, 0x00,
  0x00, 0x00, 0x00, 0x00, 0x10, 0x00, 0x00, 0x00, 0x2e, 0x17, 0x88, 0x3c,
  0xaf, 0xc0, 0x83, 0x3b, 0x2e, 0xb9, 0xfb, 0x3b, 0xa1, 0xfb, 0x06, 0x3c,
  0x97, 0x37, 0xd5, 0x3b, 0x08, 0xa0, 0x54, 0x3c, 0x5e, 0x88, 0x39, 0x3c,
  0xe3, 0xef, 0xeb, 0x3b, 0x72, 0xa8, 0x91, 0x3c, 0xb1, 0x9d, 0x9a, 0x3b,
  0xbd, 0xb9, 0x1a, 0x3c, 0xf6, 0xe8, 0x70, 0x3c, 0xaa, 0x8c, 0xf7, 0x3b,
  0x50, 0xfa, 0x80, 0x3c, 0xef, 0xe0, 0x0b, 0x3c, 0x34, 0x40, 0xd6, 0x3b,
  0x1a, 0x00, 0x00, 0x00, 0x73, 0x65, 0x71, 0x75, 0x65, 0x6e, 0x74, 0x69,
  0x61, 0x6c, 0x2f, 0x63, 0x6f, 0x6e, 0x76, 0x31, 0x64, 0x5f, 0x31, 0x2f,
  0x43, 0x6f, 0x6e, 0x76, 0x31, 0x44, 0x00, 0x00, 0x04, 0x00, 0x00, 0x00,
  0x10, 0x00, 0x00, 0x00, 0x01, 0x00, 0x00, 0x00, 0x03, 0x00, 0x00, 0x00,
  0x08, 0x00, 0x00, 0x00, 0x62, 0xfc, 0xff, 0xff, 0x00, 0x00, 0x00, 0x01,
  0x14, 0x00, 0x00, 0x00, 0xe4, 0x00, 0x00, 0x00, 0x09, 0x00, 0x00, 0x00,
  0x00, 0x00, 0x00, 0x02, 0x08, 0x01, 0x00, 0x00, 0x4c, 0xfc, 0xff, 0xff,
  0x08, 0x00, 0x00, 0x00, 0x88, 0x00, 0x00, 0x00, 0x10, 0x00, 0x00, 0x00,
  0x00, 0x00, 0x00, 0x00, 0x00, 0x00, 0x00, 0x00, 0x00, 0x00, 0x00, 0x00,
  0x00, 0x00, 0x00, 0x00, 0x00, 0x00, 0x00, 0x00, 0x00, 0x00, 0x00, 0x00,
  0x00, 0x00, 0x00, 0x00, 0x00, 0x00, 0x00, 0x00, 0x00, 0x00, 0x00, 0x00,
  0x00, 0x00, 0x00, 0x00, 0x00, 0x00, 0x00, 0x00, 0x00, 0x00, 0x00, 0x00,
  0x00, 0x00, 0x00, 0x00, 0x00, 0x00, 0x00, 0x00, 0x00, 0x00, 0x00, 0x00,
  0x00, 0x00, 0x00, 0x00, 0x00, 0x00, 0x00, 0x00, 0x00, 0x00, 0x00, 0x00,
  0x00, 0x00, 0x00, 0x00, 0x00, 0x00, 0x00, 0x00, 0x00, 0x00, 0x00, 0x00,
  0x00, 0x00, 0x00, 0x00, 0x00, 0x00, 0x00, 0x00, 0x00, 0x00, 0x00, 0x00,
  0x00, 0x00, 0x00, 0x00, 0x00, 0x00, 0x00, 0x00, 0x00, 0x00, 0x00, 0x00,
  0x00, 0x00, 0x00, 0x00, 0x00, 0x00, 0x00, 0x00, 0x00, 0x00, 0x00, 0x00,
  0x00, 0x00, 0x00, 0x00, 0x00, 0x00, 0x00, 0x00, 0x10, 0x00, 0x00, 0x00,
  0xfe, 0xcf, 0x89, 0x3a, 0x72, 0x6b, 0x85, 0x39, 0x8a, 0xe8, 0xfe, 0x39,
  0xda, 0xb0, 0x08, 0x3a, 0x39, 0xea, 0xd7, 0x39, 0xbf, 0x50, 0x57, 0x3a,
  0x54, 0xe1, 0x3b, 0x3a, 0x1d, 0xec, 0xee, 0x39, 0x3f, 0x80, 0x93, 0x3a,
  0x82, 0x92, 0x9c, 0x39, 0xe9, 0xae, 0x1c, 0x3a, 0x4b, 0xf5, 0x73, 0x3a,
  0x81, 0xae, 0xfa, 0x39, 0x16, 0x9c, 0x82, 0x3a, 0x04, 0xa6, 0x0d, 0x3a,
  0x2f, 0xf6, 0xd8, 0x39, 0x2a, 0x00, 0x00, 0x00, 0x73, 0x65, 0x71, 0x75,
  0x65, 0x6e, 0x74, 0x69, 0x61, 0x6c, 0x2f, 0x63, 0x6f, 0x6e, 0x76, 0x31,
  0x64, 0x5f, 0x31, 0x2f, 0x42, 0x69, 0x61, 0x73, 0x41, 0x64, 0x64, 0x2f,
  0x52, 0x65, 0x61, 0x64, 0x56, 0x61, 0x72, 0x69, 0x61, 0x62, 0x6c, 0x65,
  0x4f, 0x70, 0x00, 0x00, 0x01, 0x00, 0x00, 0x00, 0x10, 0x00, 0x00, 0x00,
  0x8a, 0xfd, 0xff, 0xff, 0x00, 0x00, 0x00, 0x01, 0x14, 0x00, 0x00, 0x00,
  0x30, 0x00, 0x00, 0x00, 0x08, 0x00, 0x00, 0x00, 0x00, 0x00, 0x00, 0x09,
  0x44, 0x00, 0x00, 0x00, 0x74, 0xfd, 0xff, 0xff, 0x08, 0x00, 0x00, 0x00,
  0x10, 0x00, 0x00, 0x00, 0x01, 0x00, 0x00, 0x00, 0x00, 0x00, 0x00, 0x00,
  0x00, 0x00, 0x00, 0x00, 0x01, 0x00, 0x00, 0x00, 0xcf, 0xee, 0x32, 0x3c,
  0x18, 0x00, 0x00, 0x00, 0x73, 0x65, 0x71, 0x75, 0x65, 0x6e, 0x74, 0x69,
  0x61, 0x6c, 0x2f, 0x79, 0x5f, 0x70, 0x72, 0x65, 0x64, 0x2f, 0x4d, 0x61,
  0x74, 0x4d, 0x75, 0x6c, 0x00, 0x00, 0x00, 0x00, 0x02, 0x00, 0x00, 0x00,
  0x04, 0x00, 0x00, 0x00, 0xd0, 0x00, 0x00, 0x00, 0xf2, 0xfd, 0xff, 0xff,
  0x00, 0x00, 0x00, 0x01, 0x14, 0x00, 0x00, 0x00, 0x34, 0x00, 0x00, 0x00,
  0x07, 0x00, 0x00, 0x00, 0x00, 0x00, 0x00, 0x02, 0x58, 0x00, 0x00, 0x00,
  0xdc, 0xfd, 0xff, 0xff, 0x08, 0x00, 0x00, 0x00, 0x14, 0x00, 0x00, 0x00,
  0x01, 0x00, 0x00, 0x00, 0x00, 0x00, 0x00, 0x00, 0x00, 0x00, 0x00, 0x00,
  0x00, 0x00, 0x00, 0x00, 0x01, 0x00, 0x00, 0x00, 0x52, 0xe3, 0x8a, 0x39,
  0x28, 0x00, 0x00, 0x00, 0x73, 0x65, 0x71, 0x75, 0x65, 0x6e, 0x74, 0x69,
  0x61, 0x6c, 0x2f, 0x79, 0x5f, 0x70, 0x72, 0x65, 0x64, 0x2f, 0x42, 0x69,
  0x61, 0x73, 0x41, 0x64, 0x64, 0x2f, 0x52, 0x65, 0x61, 0x64, 0x56, 0x61,
  0x72, 0x69, 0x61, 0x62, 0x6c, 0x65, 0x4f, 0x70, 0x00, 0x00, 0x00, 0x00,
  0x01, 0x00, 0x00, 0x00, 0x04, 0x00, 0x00, 0x00, 0x6a, 0xfe, 0xff, 0xff,
  0x00, 0x00, 0x00, 0x01, 0x14, 0x00, 0x00, 0x00, 0x14, 0x00, 0x00, 0x00,
  0x06, 0x00, 0x00, 0x00, 0x00, 0x00, 0x00, 0x02, 0x28, 0x00, 0x00, 0x00,
  0xc0, 0xfe, 0xff, 0xff, 0x18, 0x00, 0x00, 0x00, 0x73, 0x65, 0x71, 0x75,
  0x65, 0x6e, 0x74, 0x69, 0x61, 0x6c, 0x2f, 0x66, 0x6c, 0x61, 0x74, 0x74,
  0x65, 0x6e, 0x2f, 0x43, 0x6f, 0x6e, 0x73, 0x74, 0x00, 0x00, 0x00, 0x00,
  0x01, 0x00, 0x00, 0x00, 0x02, 0x00, 0x00, 0x00, 0xb2, 0xfe, 0xff, 0xff,
  0x00, 0x00, 0x00, 0x01, 0x14, 0x00, 0x00, 0x00, 0x14, 0x00, 0x00, 0x00,
  0x05, 0x00, 0x00, 0x00, 0x00, 0x00, 0x00, 0x02, 0x34, 0x00, 0x00, 0x00,
  0x08, 0xff, 0xff, 0xff, 0x25, 0x00, 0x00, 0x00, 0x73, 0x65, 0x71, 0x75,
  0x65, 0x6e, 0x74, 0x69, 0x61, 0x6c, 0x2f, 0x6d, 0x61, 0x78, 0x5f, 0x70,
  0x6f, 0x6f, 0x6c, 0x69, 0x6e, 0x67, 0x31, 0x64, 0x5f, 0x31, 0x2f, 0x45,
  0x78, 0x70, 0x61, 0x6e, 0x64, 0x44, 0x69, 0x6d, 0x73, 0x00, 0x00, 0x00,
  0x01, 0x00, 0x00, 0x00, 0x04, 0x00, 0x00, 0x00, 0x06, 0xff, 0xff, 0xff,
  0x00, 0x00, 0x00, 0x01, 0x14, 0x00, 0x00, 0x00, 0x14, 0x00, 0x00, 0x00,
  0x04, 0x00, 0x00, 0x00, 0x00, 0x00, 0x00, 0x02, 0x34, 0x00, 0x00, 0x00,
  0x5c, 0xff, 0xff, 0xff, 0x25, 0x00, 0x00, 0x00, 0x73, 0x65, 0x71, 0x75,
  0x65, 0x6e, 0x74, 0x69, 0x61, 0x6c, 0x2f, 0x63, 0x6f, 0x6e, 0x76, 0x31,
  0x64, 0x5f, 0x31, 0x2f, 0x43, 0x6f, 0x6e, 0x76, 0x31, 0x44, 0x2f, 0x45,
  0x78, 0x70, 0x61, 0x6e, 0x64, 0x44, 0x69, 0x6d, 0x73, 0x00, 0x00, 0x00,
  0x01, 0x00, 0x00, 0x00, 0x04, 0x00, 0x00, 0x00, 0x5a, 0xff, 0xff, 0xff,
  0x00, 0x00, 0x00, 0x01, 0x14, 0x00, 0x00, 0x00, 0x14, 0x00, 0x00, 0x00,
  0x03, 0x00, 0x00, 0x00, 0x00, 0x00, 0x00, 0x02, 0x30, 0x00, 0x00, 0x00,
  0xb0, 0xff, 0xff, 0xff, 0x23, 0x00, 0x00, 0x00, 0x73, 0x65, 0x71, 0x75,
  0x65, 0x6e, 0x74, 0x69, 0x61, 0x6c, 0x2f, 0x6d, 0x61, 0x78, 0x5f, 0x70,
  0x6f, 0x6f, 0x6c, 0x69, 0x6e, 0x67, 0x31, 0x64, 0x2f, 0x45, 0x78, 0x70,
  0x61, 0x6e, 0x64, 0x44, 0x69, 0x6d, 0x73, 0x00, 0x01, 0x00, 0x00, 0x00,
  0x04, 0x00, 0x00, 0x00, 0xaa, 0xff, 0xff, 0xff, 0x00, 0x00, 0x00, 0x01,
  0x18, 0x00, 0x00, 0x00, 0x18, 0x00, 0x00, 0x00, 0x02, 0x00, 0x00, 0x00,
  0x00, 0x00, 0x00, 0x02, 0x34, 0x00, 0x00, 0x00, 0x04, 0x00, 0x04, 0x00,
  0x04, 0x00, 0x00, 0x00, 0x23, 0x00, 0x00, 0x00, 0x73, 0x65, 0x71, 0x75,
  0x65, 0x6e, 0x74, 0x69, 0x61, 0x6c, 0x2f, 0x63, 0x6f, 0x6e, 0x76, 0x31,
  0x64, 0x2f, 0x43, 0x6f, 0x6e, 0x76, 0x31, 0x44, 0x2f, 0x45, 0x78, 0x70,
  0x61, 0x6e, 0x64, 0x44, 0x69, 0x6d, 0x73, 0x00, 0x01, 0x00, 0x00, 0x00,
  0x04, 0x00, 0x00, 0x00, 0x00, 0x00, 0x16, 0x00, 0x1c, 0x00, 0x18, 0x00,
  0x17, 0x00, 0x10, 0x00, 0x0c, 0x00, 0x08, 0x00, 0x00, 0x00, 0x00, 0x00,
  0x00, 0x00, 0x07, 0x00, 0x16, 0x00, 0x00, 0x00, 0x00, 0x00, 0x00, 0x01,
  0x20, 0x00, 0x00, 0x00, 0x3c, 0x00, 0x00, 0x00, 0x01, 0x00, 0x00, 0x00,
  0x00, 0x00, 0x00, 0x09, 0x48, 0x00, 0x00, 0x00, 0x0c, 0x00, 0x0c, 0x00,
  0x00, 0x00, 0x00, 0x00, 0x08, 0x00, 0x04, 0x00, 0x0c, 0x00, 0x00, 0x00,
  0x08, 0x00, 0x00, 0x00, 0x10, 0x00, 0x00, 0x00, 0x01, 0x00, 0x00, 0x00,
  0x05, 0x00, 0x00, 0x00, 0x00, 0x00, 0x00, 0x00, 0x01, 0x00, 0x00, 0x00,
  0xaa, 0x15, 0x57, 0x3d, 0x13, 0x00, 0x00, 0x00, 0x73, 0x65, 0x72, 0x76,
  0x69, 0x6e, 0x67, 0x5f, 0x64, 0x65, 0x66, 0x61, 0x75, 0x6c, 0x74, 0x5f,
  0x78, 0x3a, 0x30, 0x00, 0x02, 0x00, 0x00, 0x00, 0x01, 0x00, 0x00, 0x00,
  0x8a, 0x02, 0x00, 0x00, 0x05, 0x00, 0x00, 0x00, 0x6c, 0x00, 0x00, 0x00,
  0x4c, 0x00, 0x00, 0x00, 0x2c, 0x00, 0x00, 0x00, 0x18, 0x00, 0x00, 0x00,
  0x04, 0x00, 0x00, 0x00, 0xd0, 0xff, 0xff, 0xff, 0x19, 0x00, 0x00, 0x00,
  0x02, 0x00, 0x00, 0x00, 0x00, 0x00, 0x00, 0x19, 0xe0, 0xff, 0xff, 0xff,
  0x09, 0x00, 0x00, 0x00, 0x04, 0x00, 0x00, 0x00, 0x00, 0x00, 0x00, 0x09,
  0xf0, 0xff, 0xff, 0xff, 0x11, 0x00, 0x00, 0x00, 0x02, 0x00, 0x00, 0x00,
  0x00, 0x00, 0x00, 0x11, 0x0c, 0x00, 0x10, 0x00, 0x0f, 0x00, 0x00, 0x00,
  0x08, 0x00, 0x04, 0x00, 0x0c, 0x00, 0x00, 0x00, 0x03, 0x00, 0x00, 0x00,
  0x03, 0x00, 0x00, 0x00, 0x00, 0x00, 0x00, 0x03, 0x0c, 0x00, 0x0c, 0x00,
  0x0b, 0x00, 0x00, 0x00, 0x00, 0x00, 0x04, 0x00, 0x0c, 0x00, 0x00, 0x00,
  0x16, 0x00, 0x00, 0x00, 0x00, 0x00, 0x00, 0x16
};
unsigned int tflite_learn_5_len = 6656;

#endif // _EI_CLASSIFIER_TFLITE_LEARN_5_H_

